#ifndef SINE_MODEL_H
#define SINE_MODEL_H


unsigned int sine_model_len = 3116;
unsigned char sine_model[] = {
 0x1c, 0x00, 0x00, 0x00, 0x54, 0x46, 0x4c, 0x33, 0x14, 0x00, 0x20, 0x00,
  0x1c, 0x00, 0x18, 0x00, 0x14, 0x00, 0x10, 0x00, 0x0c, 0x00, 0x00, 0x00,
  0x08, 0x00, 0x04, 0x00, 0x14, 0x00, 0x00, 0x00, 0x1c, 0x00, 0x00, 0x00,
  0x90, 0x00, 0x00, 0x00, 0xe8, 0x00, 0x00, 0x00, 0x04, 0x07, 0x00, 0x00,
  0x14, 0x07, 0x00, 0x00, 0xd8, 0x0b, 0x00, 0x00, 0x03, 0x00, 0x00, 0x00,
  0x01, 0x00, 0x00, 0x00, 0x10, 0x00, 0x00, 0x00, 0x00, 0x00, 0x0a, 0x00,
  0x10, 0x00, 0x0c, 0x00, 0x08, 0x00, 0x04, 0x00, 0x0a, 0x00, 0x00, 0x00,
  0x0c, 0x00, 0x00, 0x00, 0x1c, 0x00, 0x00, 0x00, 0x38, 0x00, 0x00, 0x00,
  0x0f, 0x00, 0x00, 0x00, 0x73, 0x65, 0x72, 0x76, 0x69, 0x6e, 0x67, 0x5f,
  0x64, 0x65, 0x66, 0x61, 0x75, 0x6c, 0x74, 0x00, 0x01, 0x00, 0x00, 0x00,
  0x04, 0x00, 0x00, 0x00, 0x98, 0xff, 0xff, 0xff, 0x09, 0x00, 0x00, 0x00,
  0x04, 0x00, 0x00, 0x00, 0x07, 0x00, 0x00, 0x00, 0x64, 0x65, 0x6e, 0x73,
  0x65, 0x5f, 0x32, 0x00, 0x01, 0x00, 0x00, 0x00, 0x04, 0x00, 0x00, 0x00,
  0xc6, 0xf9, 0xff, 0xff, 0x04, 0x00, 0x00, 0x00, 0x0b, 0x00, 0x00, 0x00,
  0x64, 0x65, 0x6e, 0x73, 0x65, 0x5f, 0x69, 0x6e, 0x70, 0x75, 0x74, 0x00,
  0x02, 0x00, 0x00, 0x00, 0x34, 0x00, 0x00, 0x00, 0x04, 0x00, 0x00, 0x00,
  0xdc, 0xff, 0xff, 0xff, 0x0c, 0x00, 0x00, 0x00, 0x04, 0x00, 0x00, 0x00,
  0x13, 0x00, 0x00, 0x00, 0x43, 0x4f, 0x4e, 0x56, 0x45, 0x52, 0x53, 0x49,
  0x4f, 0x4e, 0x5f, 0x4d, 0x45, 0x54, 0x41, 0x44, 0x41, 0x54, 0x41, 0x00,
  0x08, 0x00, 0x0c, 0x00, 0x08, 0x00, 0x04, 0x00, 0x08, 0x00, 0x00, 0x00,
  0x0b, 0x00, 0x00, 0x00, 0x04, 0x00, 0x00, 0x00, 0x13, 0x00, 0x00, 0x00,
  0x6d, 0x69, 0x6e, 0x5f, 0x72, 0x75, 0x6e, 0x74, 0x69, 0x6d, 0x65, 0x5f,
  0x76, 0x65, 0x72, 0x73, 0x69, 0x6f, 0x6e, 0x00, 0x0d, 0x00, 0x00, 0x00,
  0x18, 0x06, 0x00, 0x00, 0x10, 0x06, 0x00, 0x00, 0xc0, 0x05, 0x00, 0x00,
  0xa4, 0x05, 0x00, 0x00, 0x54, 0x05, 0x00, 0x00, 0x04, 0x05, 0x00, 0x00,
  0xf4, 0x00, 0x00, 0x00, 0xa4, 0x00, 0x00, 0x00, 0x9c, 0x00, 0x00, 0x00,
  0x94, 0x00, 0x00, 0x00, 0x8c, 0x00, 0x00, 0x00, 0x6c, 0x00, 0x00, 0x00,
  0x04, 0x00, 0x00, 0x00, 0x72, 0xfa, 0xff, 0xff, 0x04, 0x00, 0x00, 0x00,
  0x58, 0x00, 0x00, 0x00, 0x0c, 0x00, 0x00, 0x00, 0x08, 0x00, 0x0e, 0x00,
  0x08, 0x00, 0x04, 0x00, 0x08, 0x00, 0x00, 0x00, 0x10, 0x00, 0x00, 0x00,
  0x28, 0x00, 0x00, 0x00, 0x00, 0x00, 0x06, 0x00, 0x08, 0x00, 0x04, 0x00,
  0x06, 0x00, 0x00, 0x00, 0x04, 0x00, 0x00, 0x00, 0x01, 0x00, 0x00, 0x00,
  0xea, 0x03, 0x00, 0x00, 0x00, 0x00, 0x0a, 0x00, 0x10, 0x00, 0x0c, 0x00,
  0x08, 0x00, 0x04, 0x00, 0x0a, 0x00, 0x00, 0x00, 0x02, 0x00, 0x00, 0x00,
  0x02, 0x00, 0x00, 0x00, 0x04, 0x00, 0x00, 0x00, 0x05, 0x00, 0x00, 0x00,
  0x32, 0x2e, 0x39, 0x2e, 0x32, 0x00, 0x00, 0x00, 0xd6, 0xfa, 0xff, 0xff,
  0x04, 0x00, 0x00, 0x00, 0x10, 0x00, 0x00, 0x00, 0x31, 0x2e, 0x35, 0x2e,
  0x30, 0x00, 0x00, 0x00, 0x00, 0x00, 0x00, 0x00, 0x00, 0x00, 0x00, 0x00,
  0xf4, 0xf5, 0xff, 0xff, 0xf8, 0xf5, 0xff, 0xff, 0xfc, 0xf5, 0xff, 0xff,
  0xfe, 0xfa, 0xff, 0xff, 0x04, 0x00, 0x00, 0x00, 0x40, 0x00, 0x00, 0x00,
  0xab, 0x0a, 0x53, 0x3f, 0x99, 0x90, 0xfb, 0x3e, 0x76, 0x2b, 0x03, 0xbf,
  0x9c, 0xdb, 0xe0, 0xbd, 0x0b, 0xcf, 0x95, 0x3f, 0xbd, 0x5f, 0x30, 0x3e,
  0x2c, 0xec, 0x09, 0x3f, 0x40, 0x4c, 0x15, 0xbd, 0xe5, 0x92, 0x3d, 0xbf,
  0x10, 0xe7, 0xed, 0xbe, 0x51, 0x0a, 0xe3, 0x3f, 0xfa, 0x09, 0x08, 0xbf,
  0x75, 0xc4, 0x67, 0x3f, 0x09, 0x90, 0xda, 0x3e, 0xfa, 0xdc, 0x94, 0x3f,
  0x6e, 0x74, 0x3c, 0xbf, 0x4a, 0xfb, 0xff, 0xff, 0x04, 0x00, 0x00, 0x00,
  0x00, 0x04, 0x00, 0x00, 0x48, 0x8b, 0x4d, 0xbd, 0x46, 0x0e, 0x2b, 0xbe,
  0x9c, 0xd3, 0x87, 0xbe, 0xfe, 0x6a, 0xd4, 0xbe, 0x17, 0x11, 0x94, 0x3e,
  0xd1, 0x8b, 0x6d, 0xbe, 0x96, 0x47, 0x8f, 0xbe, 0xe3, 0x58, 0x57, 0x3e,
  0x46, 0xb8, 0xe0, 0xbe, 0xa5, 0xc2, 0x8d, 0x3e, 0xec, 0x34, 0x8c, 0xbe,
  0x21, 0x13, 0xdc, 0x3e, 0x40, 0xf6, 0x84, 0x3b, 0x93, 0x5a, 0x97, 0x3e,
  0x32, 0xaf, 0x22, 0x3e, 0x00, 0xd9, 0x02, 0xbe, 0xe3, 0x83, 0x9c, 0xbe,
  0x4a, 0x16, 0xb8, 0xbe, 0xec, 0x0d, 0x94, 0xbd, 0x4a, 0xef, 0x70, 0xbd,
  0x00, 0x1c, 0x99, 0xbe, 0xd8, 0x43, 0x37, 0x3d, 0x19, 0x06, 0xb9, 0x3e,
  0x01, 0x37, 0x1b, 0xbe, 0xdb, 0xa2, 0x4d, 0x3e, 0x27, 0xae, 0xb0, 0xbe,
  0x90, 0xb7, 0xcb, 0xbd, 0x00, 0x90, 0x9d, 0xbd, 0x55, 0xb2, 0x42, 0xbe,
  0x46, 0xea, 0xd6, 0xbe, 0x04, 0x44, 0xee, 0xbd, 0x5f, 0x70, 0x31, 0xbd,
  0x9f, 0x6c, 0x21, 0x3e, 0xe3, 0x6d, 0x3f, 0xbe, 0xe4, 0x74, 0xaf, 0xbd,
  0x85, 0x77, 0x0c, 0xbf, 0xbc, 0xbe, 0x9f, 0x3d, 0x12, 0x5a, 0x8a, 0xbe,
  0x9c, 0x94, 0xf2, 0x3d, 0x91, 0x1d, 0x74, 0x3f, 0x72, 0x2f, 0xf7, 0x3e,
  0x22, 0x49, 0x04, 0x3e, 0xbb, 0x4b, 0xd1, 0x3e, 0x34, 0x7e, 0x19, 0x3d,
  0xae, 0x13, 0xb1, 0xbe, 0xd7, 0x37, 0x12, 0xbf, 0xc9, 0x1e, 0xc7, 0x3e,
  0x47, 0x37, 0x99, 0x3c, 0xd8, 0x31, 0x35, 0x3d, 0x2b, 0x4e, 0xb5, 0x3e,
  0xbd, 0x94, 0x99, 0x3e, 0x7e, 0x25, 0x04, 0xbe, 0x4c, 0xd5, 0xd5, 0xbd,
  0x00, 0xf4, 0x1d, 0xbc, 0xc5, 0x3a, 0xda, 0xbe, 0x90, 0xee, 0x19, 0xbe,
  0xd0, 0xb2, 0xbe, 0xbe, 0x3a, 0x34, 0x26, 0x3e, 0xb9, 0xe0, 0xd2, 0xbe,
  0xeb, 0xbd, 0xb0, 0x3e, 0x4c, 0x7f, 0x0d, 0xbe, 0x8a, 0xe9, 0x5c, 0x3e,
  0xc5, 0xb1, 0xac, 0x3e, 0x2a, 0xdb, 0x18, 0x3e, 0x42, 0x90, 0xb1, 0xbe,
  0xa4, 0x21, 0x91, 0xbe, 0x24, 0x5d, 0xd5, 0xbe, 0xa3, 0xb1, 0xb2, 0xbe,
  0xf4, 0xdd, 0xd7, 0x3d, 0x45, 0x0f, 0xd6, 0x3e, 0x58, 0x51, 0xad, 0xbd,
  0xa7, 0x72, 0xf5, 0xbd, 0x3f, 0xc5, 0xff, 0x3e, 0x72, 0xba, 0x8d, 0xbe,
  0x83, 0xb6, 0xa0, 0x3e, 0x9f, 0xe2, 0xc1, 0xbe, 0xb4, 0xbd, 0xb2, 0xbd,
  0xef, 0xa5, 0x13, 0xbf, 0xe4, 0x78, 0x54, 0xbe, 0x9c, 0xcc, 0x95, 0x3e,
  0x6e, 0x67, 0x57, 0x3e, 0xea, 0x84, 0x05, 0x3e, 0xa4, 0x6f, 0x92, 0xbe,
  0x88, 0xf5, 0x69, 0xbe, 0xf4, 0x43, 0xa8, 0x3d, 0x6c, 0xca, 0xb8, 0xbd,
  0xac, 0x47, 0x97, 0x3d, 0xb9, 0x7d, 0x05, 0x3e, 0xe0, 0x11, 0xd9, 0xbe,
  0x3e, 0x90, 0x8e, 0xbe, 0x75, 0x96, 0x5c, 0xbe, 0xcf, 0xe1, 0x9a, 0x3e,
  0x1d, 0x80, 0xa0, 0x3e, 0x64, 0x9c, 0xb1, 0xbd, 0xe0, 0xa8, 0x57, 0xbe,
  0xe1, 0xfc, 0xdf, 0xbd, 0x00, 0x1e, 0xd3, 0x3b, 0x0a, 0xdd, 0x32, 0xbe,
  0x2d, 0x47, 0xca, 0xbe, 0xc2, 0xa7, 0x88, 0xbe, 0xf1, 0xde, 0xb2, 0x3e,
  0xd0, 0xea, 0x69, 0xbe, 0xa0, 0x98, 0x1e, 0x3c, 0xb9, 0x0d, 0x40, 0xbe,
  0x1e, 0x66, 0x80, 0xbe, 0xfe, 0x30, 0x66, 0x3e, 0x37, 0x9c, 0xce, 0x3e,
  0x3a, 0x0b, 0x68, 0xbe, 0x8e, 0xe8, 0x57, 0xbe, 0x00, 0x04, 0x51, 0xbe,
  0xe2, 0xdd, 0x6b, 0x3e, 0x15, 0xb9, 0xa5, 0xbe, 0xc0, 0x31, 0x70, 0xbd,
  0xed, 0xd7, 0xab, 0x3e, 0xb4, 0xfd, 0x66, 0xbe, 0x02, 0xf9, 0x37, 0xbe,
  0xe5, 0xf2, 0xbe, 0x3e, 0x4c, 0x60, 0xa2, 0xbe, 0x06, 0x46, 0x28, 0x3e,
  0x80, 0xa0, 0x79, 0xbc, 0x69, 0xa4, 0x64, 0xbe, 0x14, 0x3c, 0x13, 0xbe,
  0x9b, 0x2f, 0xa1, 0x3e, 0x6a, 0x97, 0x72, 0x3e, 0x43, 0xba, 0xcd, 0x3e,
  0xee, 0xbf, 0x16, 0x3e, 0x4a, 0xac, 0x87, 0xbe, 0xf0, 0x52, 0x3f, 0xbd,
  0xf7, 0xcd, 0x1b, 0xbe, 0xc0, 0xb5, 0x85, 0xbe, 0x83, 0xb7, 0x9a, 0x3e,
  0xf9, 0x73, 0x11, 0xbf, 0x79, 0x75, 0xaf, 0x3e, 0x66, 0x50, 0x64, 0x3e,
  0x70, 0x4e, 0x60, 0xbe, 0x84, 0x27, 0x6f, 0x3e, 0x1f, 0xb9, 0xc0, 0xbd,
  0xcc, 0xc7, 0xc0, 0xbe, 0x8a, 0x02, 0x78, 0x3e, 0xdb, 0x27, 0xd3, 0x3e,
  0x30, 0x73, 0x2f, 0xbe, 0x77, 0x59, 0x0a, 0x3d, 0x2a, 0x58, 0xb6, 0xbe,
  0xfb, 0x83, 0x38, 0x3e, 0x22, 0x67, 0x0a, 0x3e, 0x63, 0x8a, 0xc2, 0x3e,
  0x80, 0xc6, 0x44, 0xbc, 0x80, 0x3d, 0x38, 0xbe, 0x20, 0xe9, 0xaf, 0x3c,
  0xb2, 0xbc, 0x5f, 0x3e, 0x4c, 0xa9, 0xf7, 0x3d, 0x56, 0xe5, 0x8a, 0xbe,
  0x86, 0xf4, 0x9a, 0xbe, 0x14, 0xe6, 0x84, 0xbe, 0x8a, 0x41, 0x7c, 0xbe,
  0x66, 0xb7, 0x61, 0x3e, 0xd4, 0x8f, 0xbc, 0xbd, 0xa0, 0x15, 0xfe, 0xbc,
  0xd1, 0x59, 0xc1, 0xbe, 0x84, 0xfc, 0x8c, 0x3d, 0x9b, 0x62, 0xcf, 0x3e,
  0xe2, 0xba, 0xb7, 0xbe, 0xfc, 0x99, 0xef, 0xbd, 0x2a, 0x17, 0x61, 0xbe,
  0xbc, 0x91, 0xc3, 0x3d, 0xf5, 0x0d, 0xdd, 0x3e, 0x45, 0x9a, 0xd1, 0xbe,
  0xf1, 0xe9, 0x5c, 0xbf, 0x25, 0x33, 0x7e, 0x3e, 0x20, 0xc9, 0x0d, 0xbe,
  0x06, 0x13, 0x99, 0xbe, 0x67, 0xfe, 0x46, 0x3e, 0xe9, 0x3f, 0xbf, 0x3e,
  0x5f, 0x2f, 0x03, 0x3f, 0xe0, 0x92, 0x29, 0xbc, 0xd8, 0xe0, 0xe9, 0x3c,
  0xb8, 0x39, 0x22, 0xbd, 0x96, 0x95, 0x38, 0x3e, 0xd1, 0xfc, 0xce, 0x3e,
  0x9a, 0x58, 0x12, 0x3d, 0x45, 0x47, 0x93, 0x3e, 0x89, 0xa0, 0x5e, 0xbe,
  0x00, 0x52, 0x81, 0xba, 0x08, 0xf0, 0x83, 0xbe, 0xd5, 0x50, 0xc1, 0xbe,
  0x54, 0xfc, 0x62, 0xbe, 0x7f, 0x56, 0xb3, 0x3e, 0x10, 0xce, 0xb6, 0xbd,
  0x00, 0x0a, 0x53, 0xbb, 0x1d, 0x58, 0xdb, 0xbe, 0x28, 0x87, 0x48, 0xbd,
  0xf3, 0x5b, 0xc2, 0x3e, 0xbb, 0xdd, 0xfa, 0xbe, 0xe9, 0x50, 0x97, 0xbe,
  0xd3, 0x90, 0xbf, 0x3e, 0xa1, 0x2a, 0xa6, 0xbe, 0xe5, 0x8c, 0x74, 0xbe,
  0x07, 0x1b, 0xd8, 0xbe, 0xbb, 0x75, 0x92, 0x3e, 0x77, 0xfb, 0xbe, 0x3e,
  0x19, 0xdd, 0xcf, 0x3e, 0xd0, 0x6c, 0x6e, 0x3d, 0x63, 0x62, 0xbd, 0x3e,
  0xe6, 0x75, 0xfd, 0x3d, 0x70, 0x6d, 0x27, 0xbd, 0x1f, 0x01, 0xbb, 0xbe,
  0xe4, 0x44, 0xe3, 0xbd, 0x9c, 0xb3, 0x45, 0x3e, 0x67, 0x0f, 0x06, 0x3e,
  0x6c, 0x81, 0x93, 0x3d, 0x3d, 0x70, 0xc9, 0xbe, 0x4c, 0x44, 0x25, 0x3d,
  0x2a, 0x8a, 0xa4, 0xbe, 0xa2, 0x76, 0x9e, 0xbe, 0x28, 0x62, 0x4e, 0xbd,
  0x4b, 0xf3, 0xea, 0x3d, 0xa3, 0xde, 0xc2, 0xbe, 0x99, 0x35, 0x45, 0xbe,
  0xce, 0xf3, 0x35, 0x3e, 0x7e, 0x99, 0x2f, 0x3e, 0x1d, 0x22, 0xcf, 0xbe,
  0x1a, 0xeb, 0xda, 0x3a, 0x30, 0xf4, 0x15, 0xbd, 0xf8, 0x65, 0x48, 0x3e,
  0x2f, 0x18, 0x1a, 0xbf, 0x39, 0x3e, 0xc1, 0x3e, 0x34, 0xf0, 0x8d, 0xbd,
  0xec, 0x07, 0x5e, 0xbe, 0xaa, 0xc1, 0x3a, 0x3e, 0x7c, 0x44, 0xed, 0xbd,
  0x41, 0x1a, 0xb0, 0x3e, 0x90, 0xbf, 0xb7, 0x3e, 0xe6, 0x9b, 0xaf, 0x3e,
  0x82, 0x81, 0x28, 0x3e, 0xb3, 0x4f, 0xdc, 0x3e, 0x9e, 0x85, 0x30, 0x3e,
  0xe0, 0x05, 0x84, 0xbe, 0xfd, 0x56, 0x18, 0xbf, 0x82, 0x6a, 0x32, 0x3e,
  0xf7, 0x3c, 0xaf, 0x3d, 0xa4, 0xf5, 0x32, 0xbe, 0xca, 0x2e, 0x34, 0xbe,
  0xca, 0x87, 0x7d, 0x3e, 0xf4, 0xf3, 0xb6, 0x3d, 0x8c, 0xc1, 0xf2, 0xbd,
  0xc0, 0x60, 0x49, 0x3c, 0x00, 0xd5, 0x2e, 0xbc, 0xf1, 0x27, 0x83, 0x3e,
  0xfb, 0x44, 0xa4, 0xbe, 0xee, 0x55, 0x26, 0xbe, 0x0c, 0x6f, 0xbe, 0x3d,
  0x8f, 0x50, 0xb0, 0x3c, 0xab, 0x76, 0x93, 0x3e, 0x61, 0xc4, 0x40, 0x3e,
  0xc8, 0x50, 0x89, 0xbd, 0x48, 0x6b, 0xc0, 0xbe, 0x56, 0xff, 0xff, 0xff,
  0x04, 0x00, 0x00, 0x00, 0x40, 0x00, 0x00, 0x00, 0xed, 0xed, 0xb9, 0x3e,
  0xa8, 0x22, 0xba, 0xbe, 0xa3, 0x23, 0x11, 0xbf, 0x5c, 0xf7, 0x27, 0x3f,
  0xac, 0xed, 0xfe, 0xbd, 0xdb, 0x51, 0xf7, 0xbe, 0xc8, 0x77, 0x2f, 0xbe,
  0x91, 0x12, 0xbb, 0xbd, 0x7c, 0x74, 0xfb, 0x3e, 0xb7, 0x93, 0x11, 0xbf,
  0x80, 0x03, 0xed, 0xbc, 0xb7, 0x37, 0x89, 0x3b, 0x55, 0xe7, 0xd0, 0xbe,
  0x78, 0xc6, 0xb5, 0x3e, 0xa0, 0xaf, 0xfd, 0xbc, 0x64, 0x6c, 0x39, 0x3e,
  0xa2, 0xff, 0xff, 0xff, 0x04, 0x00, 0x00, 0x00, 0x40, 0x00, 0x00, 0x00,
  0x5c, 0x3d, 0x91, 0xbd, 0xc8, 0xe1, 0xa6, 0x3e, 0xc9, 0x1d, 0x02, 0x3f,
  0x00, 0x00, 0x00, 0x00, 0x50, 0x19, 0x82, 0x3e, 0xde, 0x11, 0xbd, 0xbb,
  0x00, 0x00, 0x00, 0x00, 0x00, 0x00, 0x00, 0x00, 0xab, 0x69, 0xea, 0x3e,
  0x00, 0x00, 0x00, 0x00, 0x39, 0x70, 0x15, 0xbf, 0xa5, 0x3c, 0x4f, 0xbb,
  0xa4, 0xcb, 0x00, 0x3e, 0xbb, 0xa9, 0xad, 0xbd, 0x7c, 0x63, 0x72, 0x3e,
  0xa7, 0x69, 0xd4, 0x3c, 0xee, 0xff, 0xff, 0xff, 0x04, 0x00, 0x00, 0x00,
  0x04, 0x00, 0x00, 0x00, 0x10, 0x30, 0x02, 0xbf, 0x00, 0x00, 0x06, 0x00,
  0x08, 0x00, 0x04, 0x00, 0x06, 0x00, 0x00, 0x00, 0x04, 0x00, 0x00, 0x00,
  0x40, 0x00, 0x00, 0x00, 0x5f, 0x58, 0xf2, 0xbe, 0x00, 0x00, 0x00, 0x00,
  0x00, 0x00, 0x00, 0x00, 0xad, 0xf5, 0x1c, 0xbf, 0x00, 0x00, 0x00, 0x00,
  0x00, 0x00, 0x00, 0x00, 0x00, 0x00, 0x00, 0x00, 0x35, 0x73, 0xaa, 0x3f,
  0x0f, 0x57, 0xad, 0x3e, 0x00, 0x00, 0x00, 0x00, 0x00, 0x00, 0x00, 0x00,
  0x8d, 0x3d, 0xda, 0xbc, 0x00, 0x00, 0x00, 0x00, 0x9f, 0xaa, 0x2f, 0xbf,
  0x00, 0x00, 0x00, 0x00, 0x41, 0x46, 0x89, 0x3e, 0x54, 0xfb, 0xff, 0xff,
  0x58, 0xfb, 0xff, 0xff, 0x0f, 0x00, 0x00, 0x00, 0x4d, 0x4c, 0x49, 0x52,
  0x20, 0x43, 0x6f, 0x6e, 0x76, 0x65, 0x72, 0x74, 0x65, 0x64, 0x2e, 0x00,
  0x01, 0x00, 0x00, 0x00, 0x14, 0x00, 0x00, 0x00, 0x00, 0x00, 0x0e, 0x00,
  0x18, 0x00, 0x14, 0x00, 0x10, 0x00, 0x0c, 0x00, 0x08, 0x00, 0x04, 0x00,
  0x0e, 0x00, 0x00, 0x00, 0x14, 0x00, 0x00, 0x00, 0x1c, 0x00, 0x00, 0x00,
  0xd8, 0x00, 0x00, 0x00, 0xdc, 0x00, 0x00, 0x00, 0xe0, 0x00, 0x00, 0x00,
  0x04, 0x00, 0x00, 0x00, 0x6d, 0x61, 0x69, 0x6e, 0x00, 0x00, 0x00, 0x00,
  0x03, 0x00, 0x00, 0x00, 0x80, 0x00, 0x00, 0x00, 0x38, 0x00, 0x00, 0x00,
  0x04, 0x00, 0x00, 0x00, 0x9a, 0xff, 0xff, 0xff, 0x10, 0x00, 0x00, 0x00,
  0x00, 0x00, 0x00, 0x08, 0x0c, 0x00, 0x00, 0x00, 0x10, 0x00, 0x00, 0x00,
  0xd0, 0xfb, 0xff, 0xff, 0x01, 0x00, 0x00, 0x00, 0x09, 0x00, 0x00, 0x00,
  0x03, 0x00, 0x00, 0x00, 0x08, 0x00, 0x00, 0x00, 0x06, 0x00, 0x00, 0x00,
  0x02, 0x00, 0x00, 0x00, 0xca, 0xff, 0xff, 0xff, 0x10, 0x00, 0x00, 0x00,
  0x00, 0x00, 0x00, 0x08, 0x10, 0x00, 0x00, 0x00, 0x14, 0x00, 0x00, 0x00,
  0xba, 0xff, 0xff, 0xff, 0x00, 0x00, 0x00, 0x01, 0x01, 0x00, 0x00, 0x00,
  0x08, 0x00, 0x00, 0x00, 0x03, 0x00, 0x00, 0x00, 0x07, 0x00, 0x00, 0x00,
  0x05, 0x00, 0x00, 0x00, 0x03, 0x00, 0x00, 0x00, 0x00, 0x00, 0x0e, 0x00,
  0x16, 0x00, 0x00, 0x00, 0x10, 0x00, 0x0c, 0x00, 0x0b, 0x00, 0x04, 0x00,
  0x0e, 0x00, 0x00, 0x00, 0x18, 0x00, 0x00, 0x00, 0x00, 0x00, 0x00, 0x08,
  0x18, 0x00, 0x00, 0x00, 0x1c, 0x00, 0x00, 0x00, 0x00, 0x00, 0x06, 0x00,
  0x08, 0x00, 0x07, 0x00, 0x06, 0x00, 0x00, 0x00, 0x00, 0x00, 0x00, 0x01,
  0x01, 0x00, 0x00, 0x00, 0x07, 0x00, 0x00, 0x00, 0x03, 0x00, 0x00, 0x00,
  0x00, 0x00, 0x00, 0x00, 0x04, 0x00, 0x00, 0x00, 0x01, 0x00, 0x00, 0x00,
  0x01, 0x00, 0x00, 0x00, 0x09, 0x00, 0x00, 0x00, 0x01, 0x00, 0x00, 0x00,
  0x00, 0x00, 0x00, 0x00, 0x0a, 0x00, 0x00, 0x00, 0x5c, 0x03, 0x00, 0x00,
  0xf8, 0x02, 0x00, 0x00, 0x94, 0x02, 0x00, 0x00, 0x40, 0x02, 0x00, 0x00,
  0xfc, 0x01, 0x00, 0x00, 0xb4, 0x01, 0x00, 0x00, 0x6c, 0x01, 0x00, 0x00,
  0xe8, 0x00, 0x00, 0x00, 0x5c, 0x00, 0x00, 0x00, 0x04, 0x00, 0x00, 0x00,
  0xe0, 0xfc, 0xff, 0xff, 0x14, 0x00, 0x00, 0x00, 0x1c, 0x00, 0x00, 0x00,
  0x1c, 0x00, 0x00, 0x00, 0x0a, 0x00, 0x00, 0x00, 0x34, 0x00, 0x00, 0x00,
  0x02, 0x00, 0x00, 0x00, 0xff, 0xff, 0xff, 0xff, 0x01, 0x00, 0x00, 0x00,
  0xcc, 0xfc, 0xff, 0xff, 0x19, 0x00, 0x00, 0x00, 0x53, 0x74, 0x61, 0x74,
  0x65, 0x66, 0x75, 0x6c, 0x50, 0x61, 0x72, 0x74, 0x69, 0x74, 0x69, 0x6f,
  0x6e, 0x65, 0x64, 0x43, 0x61, 0x6c, 0x6c, 0x3a, 0x30, 0x00, 0x00, 0x00,
  0x02, 0x00, 0x00, 0x00, 0x01, 0x00, 0x00, 0x00, 0x01, 0x00, 0x00, 0x00,
  0x34, 0xfd, 0xff, 0xff, 0x14, 0x00, 0x00, 0x00, 0x1c, 0x00, 0x00, 0x00,
  0x1c, 0x00, 0x00, 0x00, 0x09, 0x00, 0x00, 0x00, 0x68, 0x00, 0x00, 0x00,
  0x02, 0x00, 0x00, 0x00, 0xff, 0xff, 0xff, 0xff, 0x10, 0x00, 0x00, 0x00,
  0x20, 0xfd, 0xff, 0xff, 0x4c, 0x00, 0x00, 0x00, 0x73, 0x65, 0x71, 0x75,
  0x65, 0x6e, 0x74, 0x69, 0x61, 0x6c, 0x2f, 0x64, 0x65, 0x6e, 0x73, 0x65,
  0x5f, 0x31, 0x2f, 0x4d, 0x61, 0x74, 0x4d, 0x75, 0x6c, 0x3b, 0x73, 0x65,
  0x71, 0x75, 0x65, 0x6e, 0x74, 0x69, 0x61, 0x6c, 0x2f, 0x64, 0x65, 0x6e,
  0x73, 0x65, 0x5f, 0x31, 0x2f, 0x52, 0x65, 0x6c, 0x75, 0x3b, 0x73, 0x65,
  0x71, 0x75, 0x65, 0x6e, 0x74, 0x69, 0x61, 0x6c, 0x2f, 0x64, 0x65, 0x6e,
  0x73, 0x65, 0x5f, 0x31, 0x2f, 0x42, 0x69, 0x61, 0x73, 0x41, 0x64, 0x64,
  0x00, 0x00, 0x00, 0x00, 0x02, 0x00, 0x00, 0x00, 0x01, 0x00, 0x00, 0x00,
  0x10, 0x00, 0x00, 0x00, 0xbc, 0xfd, 0xff, 0xff, 0x14, 0x00, 0x00, 0x00,
  0x1c, 0x00, 0x00, 0x00, 0x1c, 0x00, 0x00, 0x00, 0x08, 0x00, 0x00, 0x00,
  0x60, 0x00, 0x00, 0x00, 0x02, 0x00, 0x00, 0x00, 0xff, 0xff, 0xff, 0xff,
  0x10, 0x00, 0x00, 0x00, 0xa8, 0xfd, 0xff, 0xff, 0x46, 0x00, 0x00, 0x00,
  0x73, 0x65, 0x71, 0x75, 0x65, 0x6e, 0x74, 0x69, 0x61, 0x6c, 0x2f, 0x64,
  0x65, 0x6e, 0x73, 0x65, 0x2f, 0x4d, 0x61, 0x74, 0x4d, 0x75, 0x6c, 0x3b,
  0x73, 0x65, 0x71, 0x75, 0x65, 0x6e, 0x74, 0x69, 0x61, 0x6c, 0x2f, 0x64,
  0x65, 0x6e, 0x73, 0x65, 0x2f, 0x52, 0x65, 0x6c, 0x75, 0x3b, 0x73, 0x65,
  0x71, 0x75, 0x65, 0x6e, 0x74, 0x69, 0x61, 0x6c, 0x2f, 0x64, 0x65, 0x6e,
  0x73, 0x65, 0x2f, 0x42, 0x69, 0x61, 0x73, 0x41, 0x64, 0x64, 0x00, 0x00,
  0x02, 0x00, 0x00, 0x00, 0x01, 0x00, 0x00, 0x00, 0x10, 0x00, 0x00, 0x00,
  0x96, 0xfe, 0xff, 0xff, 0x10, 0x00, 0x00, 0x00, 0x10, 0x00, 0x00, 0x00,
  0x07, 0x00, 0x00, 0x00, 0x28, 0x00, 0x00, 0x00, 0x18, 0xfe, 0xff, 0xff,
  0x19, 0x00, 0x00, 0x00, 0x73, 0x65, 0x71, 0x75, 0x65, 0x6e, 0x74, 0x69,
  0x61, 0x6c, 0x2f, 0x64, 0x65, 0x6e, 0x73, 0x65, 0x5f, 0x32, 0x2f, 0x4d,
  0x61, 0x74, 0x4d, 0x75, 0x6c, 0x00, 0x00, 0x00, 0x02, 0x00, 0x00, 0x00,
  0x01, 0x00, 0x00, 0x00, 0x10, 0x00, 0x00, 0x00, 0xda, 0xfe, 0xff, 0xff,
  0x10, 0x00, 0x00, 0x00, 0x10, 0x00, 0x00, 0x00, 0x06, 0x00, 0x00, 0x00,
  0x28, 0x00, 0x00, 0x00, 0x5c, 0xfe, 0xff, 0xff, 0x19, 0x00, 0x00, 0x00,
  0x73, 0x65, 0x71, 0x75, 0x65, 0x6e, 0x74, 0x69, 0x61, 0x6c, 0x2f, 0x64,
  0x65, 0x6e, 0x73, 0x65, 0x5f, 0x31, 0x2f, 0x4d, 0x61, 0x74, 0x4d, 0x75,
  0x6c, 0x00, 0x00, 0x00, 0x02, 0x00, 0x00, 0x00, 0x10, 0x00, 0x00, 0x00,
  0x10, 0x00, 0x00, 0x00, 0x1e, 0xff, 0xff, 0xff, 0x10, 0x00, 0x00, 0x00,
  0x10, 0x00, 0x00, 0x00, 0x05, 0x00, 0x00, 0x00, 0x24, 0x00, 0x00, 0x00,
  0xa0, 0xfe, 0xff, 0xff, 0x17, 0x00, 0x00, 0x00, 0x73, 0x65, 0x71, 0x75,
  0x65, 0x6e, 0x74, 0x69, 0x61, 0x6c, 0x2f, 0x64, 0x65, 0x6e, 0x73, 0x65,
  0x2f, 0x4d, 0x61, 0x74, 0x4d, 0x75, 0x6c, 0x00, 0x02, 0x00, 0x00, 0x00,
  0x10, 0x00, 0x00, 0x00, 0x01, 0x00, 0x00, 0x00, 0x5e, 0xff, 0xff, 0xff,
  0x10, 0x00, 0x00, 0x00, 0x10, 0x00, 0x00, 0x00, 0x04, 0x00, 0x00, 0x00,
  0x38, 0x00, 0x00, 0x00, 0xe0, 0xfe, 0xff, 0xff, 0x29, 0x00, 0x00, 0x00,
  0x73, 0x65, 0x71, 0x75, 0x65, 0x6e, 0x74, 0x69, 0x61, 0x6c, 0x2f, 0x64,
  0x65, 0x6e, 0x73, 0x65, 0x5f, 0x31, 0x2f, 0x42, 0x69, 0x61, 0x73, 0x41,
  0x64, 0x64, 0x2f, 0x52, 0x65, 0x61, 0x64, 0x56, 0x61, 0x72, 0x69, 0x61,
  0x62, 0x6c, 0x65, 0x4f, 0x70, 0x00, 0x00, 0x00, 0x01, 0x00, 0x00, 0x00,
  0x10, 0x00, 0x00, 0x00, 0xae, 0xff, 0xff, 0xff, 0x10, 0x00, 0x00, 0x00,
  0x10, 0x00, 0x00, 0x00, 0x03, 0x00, 0x00, 0x00, 0x38, 0x00, 0x00, 0x00,
  0x30, 0xff, 0xff, 0xff, 0x29, 0x00, 0x00, 0x00, 0x73, 0x65, 0x71, 0x75,
  0x65, 0x6e, 0x74, 0x69, 0x61, 0x6c, 0x2f, 0x64, 0x65, 0x6e, 0x73, 0x65,
  0x5f, 0x32, 0x2f, 0x42, 0x69, 0x61, 0x73, 0x41, 0x64, 0x64, 0x2f, 0x52,
  0x65, 0x61, 0x64, 0x56, 0x61, 0x72, 0x69, 0x61, 0x62, 0x6c, 0x65, 0x4f,
  0x70, 0x00, 0x00, 0x00, 0x01, 0x00, 0x00, 0x00, 0x01, 0x00, 0x00, 0x00,
  0x00, 0x00, 0x0e, 0x00, 0x14, 0x00, 0x10, 0x00, 0x00, 0x00, 0x0c, 0x00,
  0x08, 0x00, 0x04, 0x00, 0x0e, 0x00, 0x00, 0x00, 0x10, 0x00, 0x00, 0x00,
  0x10, 0x00, 0x00, 0x00, 0x02, 0x00, 0x00, 0x00, 0x34, 0x00, 0x00, 0x00,
  0x90, 0xff, 0xff, 0xff, 0x27, 0x00, 0x00, 0x00, 0x73, 0x65, 0x71, 0x75,
  0x65, 0x6e, 0x74, 0x69, 0x61, 0x6c, 0x2f, 0x64, 0x65, 0x6e, 0x73, 0x65,
  0x2f, 0x42, 0x69, 0x61, 0x73, 0x41, 0x64, 0x64, 0x2f, 0x52, 0x65, 0x61,
  0x64, 0x56, 0x61, 0x72, 0x69, 0x61, 0x62, 0x6c, 0x65, 0x4f, 0x70, 0x00,
  0x01, 0x00, 0x00, 0x00, 0x10, 0x00, 0x00, 0x00, 0x14, 0x00, 0x18, 0x00,
  0x14, 0x00, 0x00, 0x00, 0x10, 0x00, 0x0c, 0x00, 0x08, 0x00, 0x00, 0x00,
  0x00, 0x00, 0x04, 0x00, 0x14, 0x00, 0x00, 0x00, 0x14, 0x00, 0x00, 0x00,
  0x20, 0x00, 0x00, 0x00, 0x20, 0x00, 0x00, 0x00, 0x01, 0x00, 0x00, 0x00,
  0x3c, 0x00, 0x00, 0x00, 0x02, 0x00, 0x00, 0x00, 0xff, 0xff, 0xff, 0xff,
  0x01, 0x00, 0x00, 0x00, 0x04, 0x00, 0x04, 0x00, 0x04, 0x00, 0x00, 0x00,
  0x1d, 0x00, 0x00, 0x00, 0x73, 0x65, 0x72, 0x76, 0x69, 0x6e, 0x67, 0x5f,
  0x64, 0x65, 0x66, 0x61, 0x75, 0x6c, 0x74, 0x5f, 0x64, 0x65, 0x6e, 0x73,
  0x65, 0x5f, 0x69, 0x6e, 0x70, 0x75, 0x74, 0x3a, 0x30, 0x00, 0x00, 0x00,
  0x02, 0x00, 0x00, 0x00, 0x01, 0x00, 0x00, 0x00, 0x01, 0x00, 0x00, 0x00,
  0x01, 0x00, 0x00, 0x00, 0x10, 0x00, 0x00, 0x00, 0x0c, 0x00, 0x0c, 0x00,
  0x0b, 0x00, 0x00, 0x00, 0x00, 0x00, 0x04, 0x00, 0x0c, 0x00, 0x00, 0x00,
  0x09, 0x00, 0x00, 0x00, 0x00, 0x00, 0x00, 0x09
};

#endif //SINE_MODEL_H